0000000000000
1111111001110
1111110011101
1111101101100
1111100111101
1111100001111
1111011100100
1111010111100
1111010010110
1111001110101
1111001010111
1111000111101
1111000100111
1111000010111
1111000001010
1111000000011
1111000000000
1111000000011
1111000001010
1111000010111
1111000100111
1111000111101
1111001010111
1111001110101
1111010010110
1111010111100
1111011100100
1111100001111
1111100111101
1111101101100
1111110011101
1111111001110
