0001000000000
0000111111101
0000111110110
0000111101001
0000111011001
0000111000011
0000110101001
0000110001011
0000101101010
0000101000100
0000100011100
0000011110001
0000011000011
0000010010100
0000001100011
0000000110010
0000000000000
1111111001110
1111110011101
1111101101100
1111100111101
1111100001111
1111011100100
1111010111100
1111010010110
1111001110101
1111001010111
1111000111101
1111000100111
1111000010111
1111000001010
1111000000011
